{
  "vocab": {
    "": 0,
    "": 1,
    "": 2,
    "": 3,
    "\u0004": 4,
    "!": 5,
    "\"": 6,
    "'": 7,
    "(": 8,
    ")": 9,
    ",": 10,
    "-": 11,
    ".": 12,
    "/": 13,
    "0": 14,
    "1": 15,
    "2": 16,
    "3": 17,
    "4": 18,
    "5": 19,
    "6": 20,
    "7": 21,
    "8": 22,
    "9": 23,
    ":": 24,
    "¿": 25,
    "،": 26,
    "؎": 27,
    "ؑ": 28,
    "ؓ": 29,
    "ؔ": 30,
    "؛": 31,
    "؟": 32,
    "ء": 33,
    "آ": 34,
    "ؤ": 35,
    "ئ": 36,
    "ا": 37,
    "ب": 38,
    "ت": 39,
    "ث": 40,
    "ج": 41,
    "ح": 42,
    "خ": 43,
    "د": 44,
    "ذ": 45,
    "ر": 46,
    "ز": 47,
    "س": 48,
    "ش": 49,
    "ص": 50,
    "ض": 51,
    "ط": 52,
    "ظ": 53,
    "ع": 54,
    "غ": 55,
    "ف": 56,
    "ق": 57,
    "ل": 58,
    "م": 59,
    "ن": 60,
    "ه": 61,
    "و": 62,
    "ٴ": 63,
    "ٹ": 64,
    "پ": 65,
    "چ": 66,
    "ڈ": 67,
    "ڑ": 68,
    "ژ": 69,
    "ک": 70,
    "گ": 71,
    "ں": 72,
    "ھ": 73,
    "ہ": 74,
    "ۂ": 75,
    "ۃ": 76,
    "ی": 77,
    "ے": 78,
    "ۓ": 79,
    "۔": 80,
    "۰": 81,
    "۱": 82,
    "۲": 83,
    "۳": 84,
    "۴": 85,
    "۵": 86,
    "۷": 87,
    "۸": 88,
    "—": 89,
    "▁": 90,
    "ے▁": 91,
    "▁ک": 92,
    "ی▁": 93,
    "▁ا": 94,
    "ر▁": 95,
    "ا▁": 96,
    "یں": 97,
    "ہ▁": 98,
    "نے▁": 99,
    "یں▁": 100,
    "تھ": 101,
    "▁م": 102,
    "سے▁": 103,
    "و▁": 104,
    "ان": 105,
    "وں": 106,
    "▁کے▁": 107,
    "یک": 108,
    "▁ب": 109,
    "▁کی▁": 110,
    "۔▁": 111,
    "یا": 112,
    "ور▁": 113,
    "▁اس": 114,
    "▁ہ": 115,
    "ار": 116,
    "▁کر": 117,
    "ال": 118,
    "▁پ": 119,
    "ور": 120,
    "ام": 121,
    "▁د": 122,
    "ات": 123,
    "▁میں▁": 124,
    "ہو": 125,
    "▁سے▁": 126,
    "ائ": 127,
    "▁نے▁": 128,
    "بھ": 129,
    "-▁": 130,
    "اد": 131,
    "چھ": 132,
    "ے▁ک": 133,
    "▁ان": 134,
    "تھا": 135,
    "اس": 136,
    "یا▁": 137,
    "▁اور▁": 138,
    "ی▁ک": 139,
    "رہ": 140,
    "▁س": 141,
    "▁گ": 142,
    "▁کر▁": 143,
    "میں▁": 144,
    "ہا": 145,
    "وہ▁": 146,
    "ین": 147,
    "▁ایک": 148,
    "▁ن": 149,
    "یر": 150,
    "▁کو▁": 151,
    "▁کا▁": 152,
    "▁ل": 153,
    "تے▁": 154,
    "ہیں▁": 155,
    "▁ج": 156,
    "ون": 157,
    "کھ": 158,
    "ی▁ا": 159,
    "ی▁تھ": 160,
    "ہے": 161,
    "ول": 162,
    "نے▁ک": 163,
    "رو": 164,
    "تم": 165,
    "تا▁": 166,
    "تو▁": 167,
    "یہ▁": 168,
    "▁آ": 169,
    "اہ": 170,
    "خو": 171,
    "ی▁ب": 172,
    "ہیں": 173,
    "ٹھ": 174,
    "ہت": 175,
    "جھ": 176,
    "..": 177,
    "از": 178,
    "یکھ": 179,
    "▁ہو": 180,
    "▁اپ": 181,
    "لی": 182,
    "بھی▁": 183,
    "ند": 184,
    "وہ": 185,
    "ے▁ا": 186,
    "▁بھ": 187,
    "ری": 188,
    "گھ": 189,
    "▁کو": 190,
    "\"▁": 191,
    "تو": 192,
    "وس": 193,
    "گا": 194,
    "ار▁": 195,
    "▁کھ": 196,
    "بی": 197,
    "لے▁": 198,
    "ی▁م": 199,
    "ئے▁": 200,
    "اب": 201,
    "''": 202,
    "ید": 203,
    "شہ": 204,
    "▁کہ": 205,
    "نا▁": 206,
    "▁پر▁": 207,
    "تی▁": 208,
    "ئی▁": 209,
    "دیکھ": 210,
    "طر": 211,
    "▁کہ▁": 212,
    "اپ": 213,
    "ی۔▁": 214,
    "ہم": 215,
    "▁اور": 216,
    "نی▁": 217,
    "سا": 218,
    "بہت": 219,
    "▁\"": 220,
    "پھ": 221,
    "▁چ": 222,
    "وال": 223,
    "وٹ": 224,
    "یل": 225,
    "تا": 226,
    "لگ": 227,
    "▁میں": 228,
    "لا": 229,
    "گر▁": 230,
    "تھے": 231,
    "وڑ": 232,
    "-▁اس": 233,
    "یر▁": 234,
    "ا▁تھا": 235,
    "پر▁": 236,
    "گر": 237,
    "فر": 238,
    "ہوں": 239,
    "▁ر": 240,
    "▁رہ": 241,
    "یوں": 242,
    "سک": 243,
    "دھ": 244,
    "ی▁سے▁": 245,
    "زاد": 246,
    "جو": 247,
    "،▁": 248,
    "نگ": 249
  },
  "merges": {
    "78,90": 91,
    "90,70": 92,
    "77,90": 93,
    "90,37": 94,
    "46,90": 95,
    "37,90": 96,
    "77,72": 97,
    "74,90": 98,
    "60,91": 99,
    "97,90": 100,
    "39,73": 101,
    "90,59": 102,
    "48,91": 103,
    "62,90": 104,
    "37,60": 105,
    "62,72": 106,
    "92,91": 107,
    "77,70": 108,
    "90,38": 109,
    "92,93": 110,
    "80,90": 111,
    "77,37": 112,
    "62,95": 113,
    "94,48": 114,
    "90,74": 115,
    "37,46": 116,
    "92,46": 117,
    "37,58": 118,
    "90,65": 119,
    "62,46": 120,
    "37,59": 121,
    "90,44": 122,
    "37,39": 123,
    "102,100": 124,
    "74,62": 125,
    "90,103": 126,
    "37,36": 127,
    "90,99": 128,
    "38,73": 129,
    "11,90": 130,
    "37,44": 131,
    "66,73": 132,
    "91,70": 133,
    "94,60": 134,
    "101,37": 135,
    "37,48": 136,
    "77,96": 137,
    "94,113": 138,
    "77,92": 139,
    "46,74": 140,
    "90,48": 141,
    "90,71": 142,
    "92,95": 143,
    "59,100": 144,
    "74,37": 145,
    "62,98": 146,
    "77,60": 147,
    "94,108": 148,
    "90,60": 149,
    "77,46": 150,
    "92,104": 151,
    "92,96": 152,
    "90,58": 153,
    "39,91": 154,
    "74,100": 155,
    "90,41": 156,
    "62,60": 157,
    "70,73": 158,
    "93,37": 159,
    "93,101": 160,
    "74,78": 161,
    "62,58": 162,
    "99,70": 163,
    "46,62": 164,
    "39,59": 165,
    "39,96": 166,
    "39,104": 167,
    "77,98": 168,
    "90,34": 169,
    "37,74": 170,
    "43,62": 171,
    "93,38": 172,
    "74,97": 173,
    "64,73": 174,
    "74,39": 175,
    "41,73": 176,
    "12,12": 177,
    "37,47": 178,
    "108,73": 179,
    "115,62": 180,
    "94,65": 181,
    "58,77": 182,
    "129,93": 183,
    "60,44": 184,
    "62,74": 185,
    "91,37": 186,
    "109,73": 187,
    "46,77": 188,
    "71,73": 189,
    "92,62": 190,
    "6,90": 191,
    "39,62": 192,
    "62,48": 193,
    "71,37": 194,
    "37,95": 195,
    "92,73": 196,
    "38,77": 197,
    "58,91": 198,
    "93,59": 199,
    "36,91": 200,
    "37,38": 201,
    "7,7": 202,
    "77,44": 203,
    "49,74": 204,
    "92,74": 205,
    "60,96": 206,
    "119,95": 207,
    "39,93": 208,
    "36,93": 209,
    "44,179": 210,
    "52,46": 211,
    "92,98": 212,
    "37,65": 213,
    "77,111": 214,
    "74,59": 215,
    "94,120": 216,
    "60,93": 217,
    "48,37": 218,
    "38,175": 219,
    "90,6": 220,
    "65,73": 221,
    "90,66": 222,
    "62,118": 223,
    "62,64": 224,
    "77,58": 225,
    "39,37": 226,
    "58,71": 227,
    "102,97": 228,
    "58,37": 229,
    "71,95": 230,
    "101,78": 231,
    "62,68": 232,
    "11,114": 233,
    "77,95": 234,
    "96,135": 235,
    "65,95": 236,
    "71,46": 237,
    "56,46": 238,
    "74,106": 239,
    "90,46": 240,
    "90,140": 241,
    "77,106": 242,
    "48,70": 243,
    "44,73": 244,
    "93,103": 245,
    "47,131": 246,
    "41,62": 247,
    "26,90": 248,
    "60,71": 249
  },
  "special_map": {
    "<BOS>": "",
    "<EOS>": "",
    "<PARA>": "",
    "<UNK>": ""
  }
}